TRT-8401-EntropyCalibration2
modelInput: 3c010a12
271: 3c372a6b
3190: 3bc60752
3193: 3b87c5a7
276: 3b9f58c4
277: 3b265026
3196: 3a93c764
3199: 3a585001
3202: 3a1fe267
284: 3b84aaa2
285: 39a8e1fd
3205: 39a53fc2
3208: 395e9b32
3211: 39225462
292: 3b8179bb
293: 38a4558f
3214: 3981ab8f
296: 39e22d1b
3217: 399043a5
3220: 39a0a2f3
301: 3b818d1d
302: 3921d0c3
3223: 399694c7
305: 3a0f42bb
3226: 39bc7172
3229: 39e5f629
310: 3b81b050
311: 395cc2a4
3232: 3990cbf4
3235: 3913159b
316: 3b81b169
317: 38940aed
3238: 3989caef
320: 3b822128
321: 38dc2de4
373: 38dc2de4
380: 38dc2de4
381: 3512bc54
382: 3911987e
(Unnamed Layer* 93) [Shuffle]_output: 3c810a14
384: 359a33bb
385: 349224a2
387: 34b7cf88
388: 3859e09d
389: 3cab25b8
(Unnamed Layer* 102) [Shuffle]_output: 3c010a14
390: 3cab25b8
(Unnamed Layer* 105) [Shuffle]_output: 0
391: 3cab25b8
393: 3c21bd9b
404: 3bef9147
407: 3c1ae0b4
410: 3c114ce5
463: 3bef9147
569: 3c114ce5
570: 3c1ae0b4
571: 3be499a7
573: 3a186670
(Unnamed Layer* 372) [Shuffle]_output: 3a186670
(Unnamed Layer* 373) [Softmax]_output: 38001702
574: 38001702
575: 3c3d0975
635: 3be839d7
636: 3bcaa9f5
637: 396718f6
638: 3be064d2
(Unnamed Layer* 442) [Shuffle]_output: 3c810a14
640: 3b93f74c
641: 3a50feff
643: 3a510448
644: 3b244510
645: 3cb08cbf
(Unnamed Layer* 451) [Shuffle]_output: 3c010a14
646: 3cb08cbf
(Unnamed Layer* 454) [Shuffle]_output: 0
647: 3cb08cbf
650: 3c60bf30
651: 3bc99707
652: 3bff8321
655: 3b758823
656: 3bf4f59e
657: 39d5000d
658: 3beae2f5
(Unnamed Layer* 474) [Shuffle]_output: 3c810a14
660: 3bd5ac8c
661: 3a606f22
663: 3a60746b
664: 3b2a1a83
665: 3cb23ce8
(Unnamed Layer* 483) [Shuffle]_output: 3c010a14
666: 3cb23ce8
(Unnamed Layer* 486) [Shuffle]_output: 0
667: 3cb23ce8
669: 3c350072
680: 3c350072
683: 3c1667e9
686: 3c329e24
739: 3c350072
845: 3c329e24
846: 3c1667e9
847: 3c3efca4
849: 3a7ea631
(Unnamed Layer* 753) [Shuffle]_output: 3a7ea631
(Unnamed Layer* 754) [Softmax]_output: 38011680
850: 38011680
851: 3c32c569
911: 3bf7773a
912: 3c1db3d4
913: 3908660a
914: 3c2b867d
(Unnamed Layer* 823) [Shuffle]_output: 3c810a14
916: 3c460f52
917: 3af743d8
919: 3af7467a
920: 3b7cddc5
921: 3caf399d
(Unnamed Layer* 832) [Shuffle]_output: 3c010a14
922: 3caf399d
(Unnamed Layer* 835) [Shuffle]_output: 0
923: 3caf399d
926: 3c38a5bf
927: 3bcd006e
928: 3c07f02e
931: 3b5dbc3d
932: 3c3c7ac5
977: 3c3c7ac5
983: 3c3c7ac5
984: 3bad9608
985: 3b9a4dae
986: 3b0508d4
3241: 3abd4e69
3244: 3aa9e0b9
991: 3b8a4776
992: 3a30aad1
3247: 39a03028
3250: 398d19d8
997: 3b81e30e
998: 3931d5a2
3253: 39a7b542
1001: 3b82a0ed
1002: 390ba1d3
1054: 390ba1d3
1061: 390ba1d3
1062: 370a7559
1063: 3915396a
(Unnamed Layer* 974) [Shuffle]_output: 3c810a14
1065: 35e51645
1066: 34c3aba0
1068: 34edfb1b
1069: 3877f2a6
1070: 3c9b60b0
(Unnamed Layer* 983) [Shuffle]_output: 3c010a14
1071: 3c9b60b0
(Unnamed Layer* 986) [Shuffle]_output: 0
1072: 3c9b60b0
1074: 3c289d38
1085: 3c040453
1088: 3c0e91be
1091: 3c3538bc
1144: 3c040453
1250: 3c3538bc
1251: 3c0e91be
1252: 3a675d4d
1254: 3885940d
(Unnamed Layer* 1253) [Shuffle]_output: 3885940d
(Unnamed Layer* 1254) [Softmax]_output: 39029e8b
1255: 39029e8b
1256: 3c2f8ef4
1316: 3c17ed63
1317: 3c18bcda
1318: 3815ba99
1319: 3c199214
(Unnamed Layer* 1323) [Shuffle]_output: 3c810a14
1321: 3c36c3ac
1322: 3a9dbf1c
1324: 3a9dc1c1
1325: 3b4922cc
1326: 3cc541ae
(Unnamed Layer* 1332) [Shuffle]_output: 3c010a14
1327: 3cc541ae
(Unnamed Layer* 1335) [Shuffle]_output: 0
1328: 3cc541ae
1331: 3c83fc6f
1332: 3be30c88
1333: 3c377fbe
1336: 3b6f03fd
1337: 3c0a24c7
1338: 3886920a
1339: 3c083df6
(Unnamed Layer* 1355) [Shuffle]_output: 3c810a14
1341: 3c157ec7
1342: 3aa8dd88
1344: 3aa8e02a
1345: 3b50d139
1346: 3ca84101
(Unnamed Layer* 1364) [Shuffle]_output: 3c010a14
1347: 3ca84101
(Unnamed Layer* 1367) [Shuffle]_output: 0
1348: 3ca84101
1350: 3c87603c
1361: 3c87603c
1364: 3c6dee77
1367: 3c096e0d
1420: 3c87603c
1526: 3c096e0d
1527: 3c6dee77
1528: 3b8d812d
1530: 39a3653a
(Unnamed Layer* 1634) [Shuffle]_output: 39a3653a
(Unnamed Layer* 1635) [Softmax]_output: 390104a7
1531: 390104a7
1532: 3c097575
1592: 3bd6d063
1593: 3c056e75
1594: 39999e26
1595: 3c0ad08d
(Unnamed Layer* 1704) [Shuffle]_output: 3c810a14
1597: 3bf77213
1598: 3ada8fae
1600: 3ada9250
1601: 3b6e1641
1602: 3cb42f8d
(Unnamed Layer* 1713) [Shuffle]_output: 3c010a14
1603: 3cb42f8d
(Unnamed Layer* 1716) [Shuffle]_output: 0
1604: 3cb42f8d
1607: 3c8187fe
1608: 3bde77a5
1609: 3c5bb808
1612: 3b626b73
1613: 3c2ef474
1614: 39bf29ea
1615: 3c290885
(Unnamed Layer* 1736) [Shuffle]_output: 3c810a14
1617: 3c1ae1dd
1618: 3b033915
1620: 3b03cea5
1621: 3b826a7b
1622: 3ca72cbf
(Unnamed Layer* 1745) [Shuffle]_output: 3c010a14
1623: 3ca72cbf
(Unnamed Layer* 1748) [Shuffle]_output: 0
1624: 3ca72cbf
1626: 3c369972
1637: 3c34ba3d
1640: 3c1f6190
1643: 3c32ba23
1696: 3c34ba3d
1802: 3c32ba23
1803: 3c1f6190
1804: 3c732deb
1806: 3a8c6651
(Unnamed Layer* 2015) [Shuffle]_output: 3a8c6651
(Unnamed Layer* 2016) [Softmax]_output: 39010e51
1807: 39010e51
1808: 3c3321aa
1868: 3bc6ef04
1869: 3c5d8af4
1870: 3a0cfb12
1871: 3c54cb63
(Unnamed Layer* 2085) [Shuffle]_output: 3c810a14
1873: 3cac6cb2
1874: 3b3201d0
1876: 3b320322
1877: 3b9798f7
1878: 3cb3d73d
(Unnamed Layer* 2094) [Shuffle]_output: 3c010a14
1879: 3cb3d73d
(Unnamed Layer* 2097) [Shuffle]_output: 0
1880: 3cb3d73d
1883: 3c5c1351
1884: 3bd9a650
1885: 3c2a4a0e
1888: 3b95993a
1889: 3c5d39d8
1890: 39ed5803
1891: 3c6ae0e4
(Unnamed Layer* 2117) [Shuffle]_output: 3c810a14
1893: 3cb19922
1894: 3b550155
1896: 3b5502a7
1897: 3ba5d4e9
1898: 3cb7d354
(Unnamed Layer* 2126) [Shuffle]_output: 3c010a14
1899: 3cb7d354
(Unnamed Layer* 2129) [Shuffle]_output: 0
1900: 3cb7d354
1902: 3c3472af
1913: 3c0acf26
1916: 3c348946
1919: 3c1c904a
1972: 3c0acf26
2078: 3c1c904a
2079: 3c348946
2080: 3ada04f7
2082: 38fbbf42
(Unnamed Layer* 2396) [Shuffle]_output: 38fbbf42
(Unnamed Layer* 2397) [Softmax]_output: 39010f0c
2083: 39010f0c
2084: 3c1f2d38
2144: 3c0e8194
2145: 3c768dae
2146: 39c7dd21
2147: 3c494fdd
(Unnamed Layer* 2466) [Shuffle]_output: 3c810a14
2149: 3c9ce825
2150: 3b8171cb
2152: 3b817274
2153: 3bb6d269
2154: 3ca9232b
(Unnamed Layer* 2475) [Shuffle]_output: 3c010a14
2155: 3ca9232b
(Unnamed Layer* 2478) [Shuffle]_output: 0
2156: 3ca9232b
2159: 3c58fd2e
2160: 3bd9e877
2161: 3c383b8f
2164: 3b827bdd
2165: 3c7f88ba
2210: 3c7f88ba
2216: 3c7f88ba
2217: 3c00f433
2218: 3c00f433
2219: 3b64ac02
3256: 3b34dc09
3259: 3b1438b7
2224: 3b8e725e
2225: 3aa6b977
3262: 3a0f405a
3265: 39a5e618
2230: 3b833ed4
2231: 39097d3c
3268: 39908ba5
2234: 3b830e2f
2235: 391025a1
2287: 391025a1
2294: 391025a1
2295: 3577de0f
2296: 391019e0
(Unnamed Layer* 2617) [Shuffle]_output: 3c810a14
2298: 361d7ef6
2299: 34958752
2301: 34bd90a1
2302: 385e7dee
2303: 3cad7b89
(Unnamed Layer* 2626) [Shuffle]_output: 3c010a14
2304: 3cad7b89
(Unnamed Layer* 2629) [Shuffle]_output: 0
2305: 3cad7b89
2307: 3c2dbb89
2318: 3c25e83b
2321: 3c035fb4
2324: 3c148fc6
2377: 3c25e83b
2483: 3c148fc6
2484: 3c035fb4
2485: 3c99987a
2487: 3a9ea204
(Unnamed Layer* 2896) [Shuffle]_output: 3a9ea204
(Unnamed Layer* 2897) [Softmax]_output: 3a02586d
2488: 3a02586d
2489: 3c10c087
2549: 3baa4f4a
2550: 3bac753c
2551: 3895d088
2552: 3bacc17b
(Unnamed Layer* 2966) [Shuffle]_output: 3c810a14
2554: 3b67f5c3
2555: 3a126202
2557: 3a12674c
2558: 3b09728e
2559: 3ca56bac
(Unnamed Layer* 2975) [Shuffle]_output: 3c010a14
2560: 3ca56bac
(Unnamed Layer* 2978) [Shuffle]_output: 0
2561: 3ca56bac
2564: 3c76dd8f
2565: 3be11869
2566: 3c51b183
2569: 3b98097a
2570: 3bf15bc3
2571: 37b05db9
2572: 3bf1dccc
(Unnamed Layer* 2998) [Shuffle]_output: 3c810a14
2574: 3be2e2fb
2575: 3a67ebba
2577: 3a67f0fd
2578: 3b2d0b5d
2579: 3cb59b8d
(Unnamed Layer* 3007) [Shuffle]_output: 3c010a14
2580: 3cb59b8d
(Unnamed Layer* 3010) [Shuffle]_output: 0
2581: 3cb59b8d
2583: 3c5468db
2594: 3c54d33d
2597: 3c223687
2600: 3c453c21
2653: 3c54d33d
2759: 3c453c21
2760: 3c223687
2761: 3d28f04f
2763: 3b2e7aa8
(Unnamed Layer* 3277) [Shuffle]_output: 3b2e7aa8
(Unnamed Layer* 3278) [Softmax]_output: 3a011e96
2764: 3a011e96
2765: 3c45c6e6
2825: 3bdd2135
2826: 3c2bdf49
2827: 37e532e4
2828: 3c2d64b5
(Unnamed Layer* 3347) [Shuffle]_output: 3c810a14
2830: 3c6955ac
2831: 3aca0ea4
2833: 3aca1149
2834: 3b623e83
2835: 3cc409a9
(Unnamed Layer* 3356) [Shuffle]_output: 3c010a14
2836: 3cc409a9
(Unnamed Layer* 3359) [Shuffle]_output: 0
2837: 3cc409a9
2840: 3c654582
2841: 3bdfab26
2842: 3c3f6727
2845: 3b86def3
2846: 3c1f6804
2847: 38904d33
2848: 3c2af117
(Unnamed Layer* 3379) [Shuffle]_output: 3c810a14
2850: 3c623ad7
2851: 3ae77745
2853: 3ae779e9
2854: 3b746a75
2855: 3cb4e49f
(Unnamed Layer* 3388) [Shuffle]_output: 3c010a14
2856: 3cb4e49f
(Unnamed Layer* 3391) [Shuffle]_output: 0
2857: 3cb4e49f
2859: 3c589632
2870: 3bfeeb53
2873: 3c59a676
2876: 3c1def85
2929: 3bfeeb53
3035: 3c1def85
3036: 3c59a676
3037: 3cb13130
3039: 3ab700d6
(Unnamed Layer* 3658) [Shuffle]_output: 3ab700d6
(Unnamed Layer* 3659) [Softmax]_output: 3a011987
3040: 3a011987
3041: 3c1dc836
3101: 3bee98bd
3102: 3c54639e
3103: 392ff9e3
3104: 3c568122
(Unnamed Layer* 3728) [Shuffle]_output: 3c810a14
3106: 3c86dc99
3107: 3b2d544c
3109: 3b2d559e
3110: 3b9597a8
3111: 3cb882da
(Unnamed Layer* 3737) [Shuffle]_output: 3c010a14
3112: 3cb882da
(Unnamed Layer* 3740) [Shuffle]_output: 0
3113: 3cb882da
3116: 3c698acb
3117: 3bdccea4
3118: 3c51058f
3121: 3b9f37e5
3122: 3c50948a
3167: 3c50948a
3173: 3c50948a
3174: 3be361c9
3175: 3be361c9
3176: 3b5b04be
3177: 3b093294
3179: 3b093294
3180: 3b093294
modelOutput: 3a9e9e0e
